TRT-100300-EntropyCalibration2
val_538: 3ca20c3d
encoder.layer.9.output.dense.bias_output: 3ad1d953
ONNXTRT_Broadcast_992_output: 3a5b8424
val_463: 3d59bcbf
val_603: 3d59cbcf
scaled_dot_product_attention_7: 3c84b2a4
gelu_7: 3ca12532
val_815: 3d6ca8d0
val_779: 3f5eb522
layer_norm_20: 3db22e06
transpose_43: 3c8a9e18
embedding: 3a98a999
embedding_1: 39b47316
add_8: 3a96c7e1
embedding_2: 3acfbbfd
add_13: 3bc1ea22
pooler_output: 3c010a14
linear_72: 3e3ba4e3
layer_norm: 3d4901f9
ONNXTRT_Broadcast_1928_output: 3a80e052
ONNXTRT_Broadcast_1628_output: 3c367d3d
val_532: 3d652b93
val_699: 3df4f518
scaled_dot_product_attention_10: 3c8a9e18
transpose_32: 3d844abc
layer_norm_22: 3d01b96a
linear_68: 3d032249
linear_58: 3e3cabbd
val_861_output: 3b1ecd83
linear_37: 3d652b93
view_31: 3c84b2a4
ONNXTRT_Broadcast_1156_output: 3b031597
transpose_39: 3c93e233
linear_59: 3f673e03
val_790_output: 3b080ea6
encoder.layer.7.output.dense.bias_output: 3ad6cce3
encoder.layer.6.output.dense.bias_output: 3ad213e1
ONNXTRT_Broadcast_1302_output: 3abce0a6
view_47: 3c7bdb63
val_849_output: 3b4ff3ea
linear_33: 3c7780d8
val_820: 3c9c6cb9
val_915: 3c010a14
ONNXTRT_Broadcast_1000_output: 3b0295e0
ONNXTRT_Broadcast_1476_output: 3b810a14
ONNXTRT_Broadcast_1636_output: 3ad1d953
ONNXTRT_Broadcast_1802_output: 3bd3aa02
encoder.layer.7.attention.output.dense.bias_output: 3a94112b
val_711_output: 3afcf5ea
val_465: 3ca9f862
val_799: 3d0de805
val_635: 3c010a14
val_628: 3dcec44c
val_898: 7f800000
encoder.layer.11.attention.self.key.bias_output: 3925b0a4
val_613: 3dfc02cb
encoder.layer.6.attention.self.key.bias_output: 393ef003
ONNXTRT_Broadcast_1942_output: 3c010a14
encoder.layer.11.intermediate.dense.bias_output: 3b4fb76d
add_426: 3dffe9e5
encoder.layer.9.attention.output.dense.bias_output: 3aa7ae6d
linear_39: 3c6a7c01
ONNXTRT_Broadcast_1332_output: 3aff4cfa
val_840_output: 3b16619a
ONNXTRT_Broadcast_1146_output: 3ac66601
ONNXTRT_Broadcast_1148_output: 3a9d1ba3
val_70_output: 3b3be10c
ONNXTRT_Broadcast_80_output: 3b3be10c
val_71: 3d36760c
encoder.layer.0.attention.self.query.bias_output: 3bdabfc1
ONNXTRT_Broadcast_82_output: 3bdabfc1
linear: 3d62273a
val_627_output: 3aed5227
val_828: 3b3b1c92
view_38: 3cf7539b
view: 3d62273a
transpose: 3d62273a
val_78_output: 3b705a34
ONNXTRT_Broadcast_85_output: 3b705a34
val_79: 3d8e845b
encoder.layer.0.attention.self.key.bias_output: 38b8fc4c
ONNXTRT_Broadcast_87_output: 38b8fc4c
linear_1: 3d8e6c69
view_1: 3d8e6c69
transpose_1: 3d8e6c69
val_86_output: 3a9194ad
ONNXTRT_Broadcast_90_output: 3a9194ad
val_87: 3cf0f6bb
encoder.layer.0.attention.self.value.bias_output: 3ab8bce8
ONNXTRT_Broadcast_92_output: 3ab8bce8
linear_2: 3cfc5875
view_2: 3cfc5875
transpose_2: 3cfc5875
val_543: 7f800000
encoder.layer.8.intermediate.dense.bias_output: 3b05facc
val_544: 3b8061eb
val_623_output: 3abce0a6
val_631: 3c010a14
ONNXTRT_Broadcast_1493_output: 3b3c8abc
ONNXTRT_Broadcast_1938_output: 3b4fb76d
ONNXTRT_Broadcast_1337_output: 3b31f8cb
val_636_output: 3b029669
val_782_output: 3b322f4c
val_499: 3d758526
val_498_output: 3b110e8b
view_43: 3c8a9e18
ONNXTRT_Broadcast_1632_output: 3b810a14
val_531: 3d652b93
val_695: 3cb354df
val_673: 3d57949d
ONNXTRT_Broadcast_1616_output: 3aa7ae6d
encoder.layer.10.attention.self.value.bias_output: 39ffb731
ONNXTRT_Broadcast_1314_output: 3b5ce19b
ONNXTRT_Broadcast_1164_output: 3b810a14
ONNXTRT_Broadcast_1780_output: 3b16619a
val_853_output: 3b6e4463
transpose_42: 3d0d0251
view_46: 3d032249
ONNXTRT_Broadcast_1792_output: 3af63272
val_893: 3ca67c1f
ONNXTRT_Broadcast_1339_output: 392baeb1
ONNXTRT_Broadcast_1498_output: 3ab3ceb8
ONNXTRT_Broadcast_1320_output: 3b810a14
transpose_28: 3d8d9a5e
val_897: 3dc1ac15
view_32: 3d844abc
val_887: 3d6b71f5
add_589: 3f518557
val_843: 3dcb0dc1
encoder.layer.7.attention.self.value.bias_output: 3ac1f178
val_515: 3d028276
val_489: 3c010a14
ONNXTRT_Broadcast_1606_output: 3b367d3d
val_559: 3d69303f
ONNXTRT_Broadcast_1644_output: 3b322f4c
view_34: 3d10d00b
val_836_output: 3abc8ea7
view_44: 3d5b0d7b
val_747: 3d5c1825
encoder.layer.11.attention.output.dense.bias_output: 3a80e052
scaled_dot_product_attention_11: 3c7bdb63
val_685: 7f800000
transpose_34: 3d10d00b
transpose_37: 3d5c1825
node_Softmax_451_output: 3b808abc
val_778_output: 3b00364c
ONNXTRT_Broadcast_1624_output: 3b56e2c7
val_818: 3d6ca8d0
val_826: 3df78cc2
add_643: 3fb15c2e
linear_34: 3dc0725c
add_534: 3e220daf
val_614: 7f800000
linear_61: 3d6ca8d0
ONNXTRT_Broadcast_1158_output: 3b4c0b3f
layer_norm_17: 3e3330ca
linear_40: 3da4e39f
val_844: 3c010a14
ONNXTRT_Broadcast_1807_output: 3925b0a4
val_506_output: 3b12be88
val_562: 3c810a14
val_791: 3d6ce69e
node_Softmax_652_output: 3b40544a
val_105: 3d8e6c69
val_106: 3d8e6c69
val_624: 3c9f548c
val_108: 3d8e6c69
val_109_output: 3b367d3d
ONNXTRT_Broadcast_196_output: 3b367d3d
val_110: 3c9fea1c
ONNXTRT_Broadcast_198_output: 3b367d3d
val_112: 3cc96acf
val_115: 7f800000
val_116: 3dc8eafe
val_117: 7f800000
node_Softmax_116_output: 3c002eb8
val_118: 3c002eb8
transpose_47: 3c7bdb63
val_120: 3c002eb8
scaled_dot_product_attention: 3c8508c2
transpose_3: 3c8508c2
val_720: 3d573fe6
view_3: 3c8508c2
val_126_output: 3b0f8956
ONNXTRT_Broadcast_210_output: 3b0f8956
val_127: 3ca923b3
encoder.layer.0.attention.output.dense.bias_output: 3a90b9ed
ONNXTRT_Broadcast_212_output: 3a90b9ed
linear_3: 3ca884da
add_102: 3d5a1897
ONNXTRT_Broadcast_1958_output: 3a35591e
pooler.dense.bias_output: 3a35591e
layer_norm_1: 3d79934f
val_130_output: 3aed2694
ONNXTRT_Broadcast_220_output: 3aed2694
val_131: 3dda55d1
encoder.layer.0.intermediate.dense.bias_output: 3b35851a
ONNXTRT_Broadcast_222_output: 3b35851a
linear_4: 3dddb143
val_132_output: 3c367d3d
ONNXTRT_Broadcast_224_output: 3c367d3d
val_133: 3d9cc29d
val_134: 3c010a14
val_135_output: 3c010a14
ONNXTRT_Broadcast_226_output: 3c010a14
val_136: 3c810a14
val_137_output: 3b810a14
ONNXTRT_Broadcast_228_output: 3b810a14
val_138: 3c010a14
gelu: 3cee8e53
val_139_output: 3b24ca0f
ONNXTRT_Broadcast_230_output: 3b24ca0f
val_140: 3e1e6ce0
encoder.layer.0.output.dense.bias_output: 3b2f42dd
ONNXTRT_Broadcast_232_output: 3b2f42dd
linear_5: 3e1e1109
add_103: 3ed331a7
node_linear_72_output: 3e3bd81f
pooler.dense.weight_output: 3b137bf0
layer_norm_2: 3d8bbd18
val_143_output: 3b0b4296
ONNXTRT_Broadcast_240_output: 3b0b4296
val_144: 3d4ef363
encoder.layer.1.attention.self.query.bias_output: 3be53810
ONNXTRT_Broadcast_242_output: 3be53810
linear_6: 3d5f887d
view_4: 3d5f887d
transpose_4: 3d5f887d
val_151_output: 3b0d5717
ONNXTRT_Broadcast_245_output: 3b0d5717
val_152: 3d69575d
encoder.layer.1.attention.self.key.bias_output: 394ac6bd
ONNXTRT_Broadcast_247_output: 394ac6bd
linear_7: 3d6a5605
view_5: 3d6a5605
transpose_5: 3d6a5605
val_159_output: 3aac8cff
ONNXTRT_Broadcast_250_output: 3aac8cff
val_160: 3d01104f
encoder.layer.1.attention.self.value.bias_output: 3a98eb8d
ONNXTRT_Broadcast_252_output: 3a98eb8d
linear_8: 3d012783
view_6: 3d012783
transpose_6: 3d012783
ONNXTRT_Broadcast_1478_output: 3b10f5c1
val_656_output: 3ab79a87
val_633: 3c810a14
val_546: 3b8061eb
node_Softmax_719_output: 3b402d3c
transpose_26: 3d07db7c
encoder.layer.9.attention.self.key.bias_output: 394c963d
encoder.layer.5.attention.output.dense.bias_output: 3a5b8424
val_702: 3c010a14
linear_65: 3fa91e5b
val_783: 3d51e0c4
val_674: 3d57949d
ONNXTRT_Broadcast_982_output: 3b367d3d
ONNXTRT_Broadcast_1770_output: 3abc8ea7
ONNXTRT_Broadcast_980_output: 3b367d3d
node_Softmax_518_output: 3b8061eb
ONNXTRT_Broadcast_1450_output: 3b367d3d
ONNXTRT_Broadcast_1500_output: 3ab6096d
linear_57: 3c94aee9
ONNXTRT_Broadcast_1656_output: 39ffb731
ONNXTRT_Broadcast_1626_output: 3b3be982
val_841: 3e0f9bac
ONNXTRT_Broadcast_1800_output: 3b6e4463
transpose_35: 3c982066
transpose_46: 3d032249
encoder.layer.6.attention.output.dense.bias_output: 3a9d1ba3
encoder.layer.8.attention.output.dense.bias_output: 3a76e263
val_602: 3d59cbcf
linear_51: 3c901f5e
val_560: 3c010a14
val_605: 3d59cbcf
encoder.layer.8.output.dense.bias_output: 3ad5243f
layer_norm_15: 3e1242ab
encoder.layer.7.attention.self.key.bias_output: 39306b05
ONNXTRT_Broadcast_1812_output: 3a10d853
val_901: 3b3c79ca
ONNXTRT_Broadcast_1472_output: 3c367d3d
val_908: 3c3c27be
ONNXTRT_Broadcast_1032_output: 3a9b3bfb
transpose_31: 3c84b2a4
ONNXTRT_Broadcast_1614_output: 3af274f7
val_706: 3c010a14
val_564: 3c010a14
add_373: 3e517511
val_637: 3cc01ac6
view_24: 3d777fea
ONNXTRT_Broadcast_1344_output: 3a7dbd7a
val_536: 3caf0239
gelu_11: 3cb60c55
ONNXTRT_Broadcast_1136_output: 3b367d3d
add_642: 3e399e21
val_712: 3d767eea
val_870: 3d022b78
ONNXTRT_Broadcast_1772_output: 3aa47f70
val_615: 3b418296
encoder.layer.5.intermediate.dense.bias_output: 3b8d1325
layer_norm_14: 3df966fc
ONNXTRT_Broadcast_1010_output: 3b448b7c
transpose_33: 3d57949d
val_566: 3e89fcc5
scaled_dot_product_attention_8: 3c982066
val_775: 3c810a14
val_701: 3da9b5ec
linear_56: 3cf7539b
ONNXTRT_Broadcast_1760_output: 3b367d3d
val_850: 3fa8ed61
linear_38: 3d07db7c
linear_48: 3d844abc
ONNXTRT_Broadcast_1460_output: 3a76e263
ONNXTRT_Broadcast_1292_output: 3b367d3d
val_176: 3d6a5605
val_177: 3d6a5605
val_749: 3cb5f26b
val_179: 3d6a5605
ONNXTRT_Broadcast_356_output: 3b367d3d
val_181: 3c9e0fd3
ONNXTRT_Broadcast_358_output: 3b367d3d
val_183: 3ca5b35a
val_187: 3e008b50
val_188: 7f800000
node_Softmax_183_output: 3bc18928
val_189: 3bc18928
ONNXTRT_Broadcast_1448_output: 3b367d3d
val_191: 3bc18928
scaled_dot_product_attention_1: 3c92aee2
transpose_7: 3c92aee2
view_7: 3c92aee2
val_197_output: 3aefe148
ONNXTRT_Broadcast_366_output: 3aefe148
val_198: 3c7bc64f
encoder.layer.1.attention.output.dense.bias_output: 3b150fc1
ONNXTRT_Broadcast_368_output: 3b150fc1
linear_9: 3c7b7aaa
add_156: 3d8b016c
select: 3d620b94
layer_norm_3: 3e535d01
val_201_output: 3afa0a4a
ONNXTRT_Broadcast_376_output: 3afa0a4a
val_202: 3e09165c
encoder.layer.1.intermediate.dense.bias_output: 3b2752df
ONNXTRT_Broadcast_378_output: 3b2752df
linear_10: 3e0c88a4
ONNXTRT_Broadcast_380_output: 3c367d3d
val_204: 3dc6bea8
val_205: 3c010a14
ONNXTRT_Broadcast_382_output: 3c010a14
val_207: 3c810a14
ONNXTRT_Broadcast_384_output: 3b810a14
val_209: 3c010a14
gelu_1: 3ccdf79d
val_210_output: 3b119b14
ONNXTRT_Broadcast_386_output: 3b119b14
val_211: 3de346b0
encoder.layer.1.output.dense.bias_output: 3b150b1a
ONNXTRT_Broadcast_388_output: 3b150b1a
linear_11: 3de366e2
add_157: 3ea1cb23
last_hidden_state: 3d5fa838
layer_norm_4: 3da8f3c2
val_214_output: 3b5683c7
ONNXTRT_Broadcast_396_output: 3b5683c7
val_215: 3d827a0c
encoder.layer.2.attention.self.query.bias_output: 3b6bf82b
ONNXTRT_Broadcast_398_output: 3b6bf82b
linear_12: 3d8a6042
view_8: 3d8a6042
transpose_8: 3d8a6042
val_222_output: 3b4c5cd6
ONNXTRT_Broadcast_401_output: 3b4c5cd6
val_223: 3d71feaa
encoder.layer.2.attention.self.key.bias_output: 38e9c689
ONNXTRT_Broadcast_403_output: 38e9c689
linear_13: 3d7356e3
view_9: 3d7356e3
transpose_9: 3d7356e3
val_230_output: 3aaf1dd2
ONNXTRT_Broadcast_406_output: 3aaf1dd2
val_231: 3cedf753
encoder.layer.2.attention.self.value.bias_output: 3b05eef4
ONNXTRT_Broadcast_408_output: 3b05eef4
linear_14: 3cf94621
view_10: 3cf94621
transpose_10: 3cf94621
ONNXTRT_Broadcast_1630_output: 3c010a14
val_552_output: 3ac66601
val_617: 3b418296
val_657: 3d0c051d
ONNXTRT_Broadcast_1006_output: 3c010a14
linear_70: 3dbbe9fd
val_648_output: 3b31f8cb
val_757: 3b402d3c
encoder.layer.10.attention.self.query.bias_output: 3c07b224
transpose_29: 3d59cbcf
val_698_output: 3b034cb5
val_837: 3c46b071
encoder.layer.7.attention.self.query.bias_output: 3bdf5c58
linear_49: 3d57949d
view_45: 3d6b71f5
val_460: 3d59bcbf
val_534: 3d652b93
ONNXTRT_Broadcast_1651_output: 3941e978
view_23: 3c8cf1da
val_640_output: 3aff4cfa
ONNXTRT_Broadcast_1138_output: 3b367d3d
transpose_41: 3d6ca8d0
val_542: 3e073ee5
val_914: 3d84e012
val_686: 3b40544a
val_772: 3e056913
view_30: 3ce3f8ad
node_Softmax_786_output: 3b3b1c92
val_744: 3d5c1825
gelu_6: 3c8ffaa5
layer_norm_19: 3dea30e7
val_607: 3cc841c3
ONNXTRT_Broadcast_1027_output: 393ef003
encoder.layer.6.attention.self.value.bias_output: 3a9b3bfb
ONNXTRT_Broadcast_1183_output: 39306b05
val_912: 3dbb6419
val_481_output: 3ac9d526
ONNXTRT_Broadcast_1008_output: 3b810a14
transpose_27: 3c8ed539
ONNXTRT_Broadcast_1488_output: 3afcf5ea
linear_53: 3e0381b5
encoder.layer.9.intermediate.dense.bias_output: 3b3be982
add_481: 3e0cec10
ONNXTRT_Broadcast_1012_output: 3a9dbed3
linear_52: 3df001cf
ONNXTRT_Broadcast_1654_output: 3add93cc
layer_norm_21: 3dd9e011
transpose_24: 3d777fea
layer_norm_11: 3e5e3b01
val_473: 3b808abc
val_493: 3c010a14
val_485_output: 3b0295e0
add_480: 3e007da1
scaled_dot_product_attention_9: 3c93e233
val_827: 7f800000
encoder.layer.8.attention.self.value.bias_output: 3a7dbd7a
val_630: 3d971398
ONNXTRT_Broadcast_1604_output: 3b367d3d
val_495: 3ed89e8c
layer_norm_23: 3d32f40b
val_488: 3d881494
transpose_36: 3d80a7eb
val_756: 7f800000
view_25: 3d652b93
encoder.layer.6.intermediate.dense.bias_output: 3b4c0b3f
val_886: 3d6b71f5
ONNXTRT_Broadcast_1649_output: 3b080ea6
val_846: 3c810a14
val_247: 3d7356e3
val_248: 3d7356e3
gelu_9: 3dba3622
val_250: 3d7356e3
ONNXTRT_Broadcast_512_output: 3b367d3d
val_252: 3cc3b176
ONNXTRT_Broadcast_514_output: 3b367d3d
val_254: 3cac1122
val_258: 3e5d6afa
val_259: 7f800000
node_Softmax_250_output: 3ba162c5
val_260: 3ba162c5
encoder.layer.9.attention.self.value.bias_output: 3ab6096d
scaled_dot_product_attention_6: 3c8ed539
val_262: 3ba162c5
scaled_dot_product_attention_2: 3c9abd2e
transpose_11: 3c9abd2e
view_11: 3c9abd2e
val_268_output: 3ac60388
ONNXTRT_Broadcast_522_output: 3ac60388
val_269: 3c89363f
encoder.layer.2.attention.output.dense.bias_output: 3b17f270
ONNXTRT_Broadcast_524_output: 3b17f270
linear_15: 3c804ab8
add_210: 3dace980
layer_norm_5: 3d469f2a
val_272_output: 3b3c10be
ONNXTRT_Broadcast_532_output: 3b3c10be
val_273: 3e1626ee
encoder.layer.2.intermediate.dense.bias_output: 3b828438
ONNXTRT_Broadcast_534_output: 3b828438
linear_16: 3e1a4761
ONNXTRT_Broadcast_536_output: 3c367d3d
val_275: 3dda2ee7
val_276: 3c010a14
ONNXTRT_Broadcast_538_output: 3c010a14
val_278: 3c810a14
ONNXTRT_Broadcast_540_output: 3b810a14
val_280: 3c010a14
gelu_2: 3d671612
val_281_output: 3b0bb774
ONNXTRT_Broadcast_542_output: 3b0bb774
val_282: 3fef70c9
encoder.layer.2.output.dense.bias_output: 3b0fe580
ONNXTRT_Broadcast_544_output: 3b0fe580
linear_17: 3fef7ff4
add_211: 3e86deaf
val_907_output: 3ab02b8e
layer_norm_6: 3d9cfc25
val_285_output: 3b13f514
ONNXTRT_Broadcast_552_output: 3b13f514
val_286: 3d5438fa
encoder.layer.3.attention.self.query.bias_output: 3b9c2148
ONNXTRT_Broadcast_554_output: 3b9c2148
linear_18: 3d5afb75
view_12: 3d5afb75
transpose_12: 3d5afb75
val_293_output: 3b1e6e97
ONNXTRT_Broadcast_557_output: 3b1e6e97
val_294: 3d420063
encoder.layer.3.attention.self.key.bias_output: 39348561
ONNXTRT_Broadcast_559_output: 39348561
linear_19: 3d419a07
view_13: 3d419a07
transpose_13: 3d419a07
val_301_output: 3ab0f9ab
ONNXTRT_Broadcast_562_output: 3ab0f9ab
val_302: 3d0e3d92
encoder.layer.3.attention.self.value.bias_output: 3a8927ae
ONNXTRT_Broadcast_564_output: 3a8927ae
linear_20: 3d122815
view_14: 3d122815
transpose_14: 3d122815
transpose_40: 3d5d37cd
ONNXTRT_Broadcast_990_output: 3ac9d526
ONNXTRT_Broadcast_1181_output: 3b09b9d2
encoder.layer.10.attention.self.key.bias_output: 3941e978
val_688: 3b40544a
val_553: 3c89610a
val_649: 3d6120f8
view_27: 3c8ed539
view_41: 3d6ca8d0
linear_50: 3d10d00b
linear_55: 3d5c1825
ONNXTRT_Broadcast_1162_output: 3c010a14
layer_norm_18: 3e2f6b37
ONNXTRT_Broadcast_1790_output: 3b4ff3ea
val_889: 3d6b71f5
ONNXTRT_Broadcast_1324_output: 3ad6cce3
val_609: 3c9a014f
view_36: 3d80a7eb
val_777: 3c010a14
val_641: 3d78dbcd
linear_66: 3d5b0d7b
ONNXTRT_Broadcast_1334_output: 3bbf1b05
ONNXTRT_Broadcast_1176_output: 3adf146d
ONNXTRT_Broadcast_1918_output: 3b367d3d
view_42: 3d0d0251
val_728: 3cfd22a4
ONNXTRT_Broadcast_1318_output: 3c010a14
ONNXTRT_Broadcast_1322_output: 3b029669
val_766: 3c94a938
ONNXTRT_Broadcast_1458_output: 3ad120c7
encoder.layer.11.attention.self.value.bias_output: 3a10d853
encoder.layer.11.attention.self.query.bias_output: 3bd3aa02
encoder.layer.8.attention.self.key.bias_output: 392baeb1
node_Softmax_853_output: 3b3c79ca
val_486: 3dc0c4fc
linear_36: 3d777fea
linear_54: 3d80a7eb
val_798_output: 3add93cc
val_751: 3c9ba154
val_565_output: 3b1cec18
val_755: 3dc4a303
ONNXTRT_Broadcast_1805_output: 3b1ecd83
val_694_output: 3ad120c7
ONNXTRT_Broadcast_1495_output: 394c963d
val_586: 3ce68bf6
view_26: 3d07db7c
linear_42: 3d8d9a5e
val_773: 3c010a14
ONNXTRT_Broadcast_1316_output: 3c367d3d
linear_41: 3e8c15f5
linear_46: 3dd5a78c
val_765_output: 3af274f7
transpose_38: 3cf7539b
view_29: 3d59cbcf
ONNXTRT_Broadcast_1022_output: 3b9b1e2b
ONNXTRT_Broadcast_1004_output: 3c367d3d
encoder.layer.8.attention.self.query.bias_output: 3bbf1b05
node_Softmax_585_output: 3b418296
ONNXTRT_Broadcast_1342_output: 3ab79a87
ONNXTRT_Broadcast_1030_output: 3aaf223d
val_676: 3d57949d
ONNXTRT_Broadcast_1810_output: 3ad578fc
ONNXTRT_Broadcast_1188_output: 3ac1f178
add_535: 3e27dd62
val_318: 3d419a07
val_319: 3d419a07
val_869_output: 3ad578fc
val_321: 3d419a07
ONNXTRT_Broadcast_668_output: 3b367d3d
val_323: 3c9ad806
ONNXTRT_Broadcast_670_output: 3b367d3d
val_325: 3c88e5a5
val_329: 3deb3bd7
val_330: 7f800000
node_Softmax_317_output: 3b807f27
val_331: 3b807f27
scaled_dot_product_attention_5: 3c8cf1da
ONNXTRT_Broadcast_1186_output: 3aa73b4b
val_333: 3b807f27
scaled_dot_product_attention_3: 3ca45ebb
transpose_15: 3ca45ebb
view_15: 3ca45ebb
val_339_output: 3acaf837
ONNXTRT_Broadcast_678_output: 3acaf837
val_340: 3c7b2cc4
encoder.layer.3.attention.output.dense.bias_output: 3aebc693
ONNXTRT_Broadcast_680_output: 3aebc693
linear_21: 3c7d1f1a
add_264: 3db09cbb
ONNXTRT_Broadcast_1926_output: 3ab02b8e
add_697: 3e2714a9
layer_norm_7: 3e83908c
val_343_output: 3b2a6e64
ONNXTRT_Broadcast_688_output: 3b2a6e64
val_344: 3defc67d
encoder.layer.3.intermediate.dense.bias_output: 3b351580
ONNXTRT_Broadcast_690_output: 3b351580
linear_22: 3df13de7
ONNXTRT_Broadcast_692_output: 3c367d3d
val_346: 3daa956f
val_347: 3c010a14
ONNXTRT_Broadcast_694_output: 3c010a14
val_349: 3c810a14
ONNXTRT_Broadcast_696_output: 3b810a14
val_351: 3c010a14
gelu_3: 3c6a9f42
val_352_output: 3b5a58f5
ONNXTRT_Broadcast_698_output: 3b5a58f5
val_353: 3f09842d
encoder.layer.3.output.dense.bias_output: 3ad4ea20
ONNXTRT_Broadcast_700_output: 3ad4ea20
linear_23: 3f09fdf1
add_265: 3e8904ec
linear_71: 3d0fef71
ONNXTRT_Broadcast_1948_output: 3a969c5b
layer_norm_8: 3dcfed05
val_356_output: 3b07eb1e
ONNXTRT_Broadcast_708_output: 3b07eb1e
val_357: 3d639e5b
encoder.layer.4.attention.self.query.bias_output: 3ba17b01
ONNXTRT_Broadcast_710_output: 3ba17b01
linear_24: 3d708f27
view_16: 3d708f27
transpose_16: 3d708f27
val_364_output: 3b0901fe
ONNXTRT_Broadcast_713_output: 3b0901fe
val_365: 3d4adf9b
encoder.layer.4.attention.self.key.bias_output: 3910aedb
ONNXTRT_Broadcast_715_output: 3910aedb
linear_25: 3d4bab24
view_17: 3d4bab24
transpose_17: 3d4bab24
val_372_output: 3ab81e6c
ONNXTRT_Broadcast_718_output: 3ab81e6c
val_373: 3d0d9e70
encoder.layer.4.attention.self.value.bias_output: 3a5e6a4b
ONNXTRT_Broadcast_720_output: 3a5e6a4b
linear_26: 3d0d1f95
view_18: 3d0d1f95
transpose_18: 3d0d1f95
val_585_output: 3aa73b4b
ONNXTRT_Broadcast_1782_output: 3af02ad8
gelu_10: 3e0f94a6
val_461: 3d59bcbf
encoder.layer.10.output.dense.bias_output: 3af63272
val_822: 3ca757ee
view_39: 3c93e233
transpose_23: 3c8cf1da
layer_norm_16: 3e1a208d
val_899: 3b3c79ca
val_862: 3d69d26b
transpose_30: 3ce3f8ad
val_556_output: 3b031597
val_891: 3c9ae4c5
encoder.layer.5.output.dense.bias_output: 3a9dbed3
val_917: 3c810a14
linear_44: 3ce3f8ad
val_507: 3d6564bb
val_557: 3da19c98
val_745: 3d5c1825
val_816: 3d6ca8d0
val_471: 3e002b3d
ONNXTRT_Broadcast_1294_output: 3b367d3d
val_848: 3c010a14
linear_43: 3d59cbcf
encoder.layer.6.attention.self.query.bias_output: 3b9b1e2b
val_854: 3d4ee65b
val_472: 7f800000
val_578: 3d59cb4c
gelu_5: 3c90b682
val_680: 3c98703d
val_911_output: 3ae8dcdf
val_577_output: 3b09b9d2
ONNXTRT_Broadcast_1944_output: 3b810a14
view_28: 3d8d9a5e
ONNXTRT_Broadcast_1788_output: 3b810a14
view_35: 3c982066
val_514_output: 3aaf223d
ONNXTRT_Broadcast_1178_output: 3bdf5c58
val_475: 3b808abc
ONNXTRT_Broadcast_1646_output: 3c07b224
val_570: 3d8371b7
ONNXTRT_Broadcast_1490_output: 3bc582e6
encoder.layer.10.attention.output.dense.bias_output: 3aa47f70
add_696: 3d00fe9f
val_919: 3c010a14
val_569_output: 3adf146d
ONNXTRT_Broadcast_1002_output: 3b8d1325
view_37: 3d5c1825
val_719_output: 3b3c8abc
ONNXTRT_Broadcast_1312_output: 3aed5227
val_727_output: 3ab3ceb8
ONNXTRT_Broadcast_1468_output: 3b034cb5
ONNXTRT_Broadcast_1634_output: 3b00364c
add_372: 3df2fbf5
ONNXTRT_Broadcast_1020_output: 3b110e8b
val_467: 3c99f6a9
transpose_45: 3d6b71f5
layer_norm_13: 3e414d29
ONNXTRT_Broadcast_1940_output: 3c367d3d
linear_69: 3c3c2d09
val_769_output: 3b56e2c7
val_494_output: 3b448b7c
add_427: 3e37fe66
ONNXTRT_Broadcast_1762_output: 3b367d3d
ONNXTRT_Broadcast_1786_output: 3c010a14
linear_45: 3c607a4d
ONNXTRT_Broadcast_1304_output: 3a94112b
ONNXTRT_Broadcast_1168_output: 3ad213e1
ONNXTRT_Broadcast_1166_output: 3b1cec18
val_389: 3d4bab24
val_390: 3d4bab24
val_392: 3d4bab24
ONNXTRT_Broadcast_824_output: 3b367d3d
val_394: 3caa19de
ONNXTRT_Broadcast_826_output: 3b367d3d
val_396: 3c90b8c2
val_400: 3dc2d168
val_401: 7f800000
node_Softmax_384_output: 3b7f9aab
val_402: 3b7f9aab
linear_60: 3d5d37cd
ONNXTRT_Broadcast_1160_output: 3c367d3d
val_404: 3b7f9aab
scaled_dot_product_attention_4: 3ca63944
transpose_19: 3ca63944
view_19: 3ca63944
val_410_output: 3ad2efe0
ONNXTRT_Broadcast_834_output: 3ad2efe0
val_411: 3c937932
encoder.layer.4.attention.output.dense.bias_output: 3a85a6a1
ONNXTRT_Broadcast_836_output: 3a85a6a1
linear_27: 3c8a259b
add_318: 3de7c8bd
encoder.layer.11.output.dense.bias_output: 3a969c5b
val_921: 3d48d638
layer_norm_9: 3e851700
val_414_output: 3b143664
ONNXTRT_Broadcast_844_output: 3b143664
val_415: 3def3e18
encoder.layer.4.intermediate.dense.bias_output: 3b714aba
ONNXTRT_Broadcast_846_output: 3b714aba
linear_28: 3deede5b
ONNXTRT_Broadcast_848_output: 3c367d3d
val_417: 3da8e7d5
val_418: 3c010a14
ONNXTRT_Broadcast_850_output: 3c010a14
val_420: 3c810a14
ONNXTRT_Broadcast_852_output: 3b810a14
val_422: 3c010a14
gelu_4: 3ca0cae5
val_423_output: 3b5cbd1a
ONNXTRT_Broadcast_854_output: 3b5cbd1a
val_424: 3f10f8fc
encoder.layer.4.output.dense.bias_output: 3ae4164d
ONNXTRT_Broadcast_856_output: 3ae4164d
linear_29: 3f112585
add_319: 3e404b7d
ONNXTRT_Broadcast_1946_output: 3aeeb99c
val_920_output: 3aeeb99c
layer_norm_10: 3de912a7
val_427_output: 3b062edf
ONNXTRT_Broadcast_864_output: 3b062edf
val_428: 3d642a3e
encoder.layer.5.attention.self.query.bias_output: 3b75a7bc
ONNXTRT_Broadcast_866_output: 3b75a7bc
linear_30: 3d705fce
view_20: 3d705fce
transpose_20: 3d705fce
val_435_output: 3b12ddef
ONNXTRT_Broadcast_869_output: 3b12ddef
val_436: 3d61ed68
encoder.layer.5.attention.self.key.bias_output: 3913434a
ONNXTRT_Broadcast_871_output: 3913434a
linear_31: 3d59bcbf
view_21: 3d59bcbf
transpose_21: 3d59bcbf
val_443_output: 3ad980f6
ONNXTRT_Broadcast_874_output: 3ad980f6
val_444: 3d0f1469
encoder.layer.5.attention.self.value.bias_output: 3a251fc3
ONNXTRT_Broadcast_876_output: 3a251fc3
linear_32: 3d0b4637
view_22: 3d0b4637
transpose_22: 3d0b4637
val_830: 3b3b1c92
view_33: 3d57949d
transpose_44: 3d5b0d7b
transpose_25: 3d652b93
ONNXTRT_Broadcast_1474_output: 3c010a14
ONNXTRT_Broadcast_1025_output: 3b12be88
val_759: 3b402d3c
view_40: 3d5d37cd
val_704: 3c810a14
val_684: 3dcaed5c
linear_63: 3c4ab14a
gelu_8: 3ccd95eb
val_707_output: 3b10f5c1
linear_67: 3d6b71f5
add_588: 3e39ed41
linear_62: 3d0d0251
val_708: 3e00cde9
encoder.layer.10.intermediate.dense.bias_output: 3af02ad8
linear_64: 3e0f94a6
encoder.layer.7.intermediate.dense.bias_output: 3b5ce19b
encoder.layer.9.attention.self.query.bias_output: 3bc582e6
layer_norm_12: 3df6d6b5
ONNXTRT_Broadcast_1936_output: 3ae8dcdf
val_678: 3cbb16cc
val_482: 3c90eb07
val_491: 3c810a14
ONNXTRT_Broadcast_1784_output: 3c367d3d
ONNXTRT_Broadcast_1916_output: 3b367d3d
ONNXTRT_Broadcast_1480_output: 3ad5243f
val_770: 3e380065
linear_47: 3cc1c9d1
linear_35: 3ed9a733
ONNXTRT_Broadcast_1470_output: 3b05facc
