TRT-100300-EntropyCalibration2
ONNXTRT_Broadcast_512_output: 3ad213e1
/encoder/layer.7/intermediate/intermediate_act_fn/Div_output_0: 3d971398
/encoder/layer.8/output/LayerNorm/LayerNormalization_output_0: 3e2f6b3a
encoder.layer.10.attention.output.dense.bias_output: 3aa47f70
/encoder/layer.8/intermediate/intermediate_act_fn/Mul_1_output_0: 3ccd95e8
/encoder/layer.9/attention/self/Softmax_output: 3b402d3c
/encoder/layer.11/attention/self/Reshape_2_output_0: 3d5b0d76
ONNXTRT_Broadcast_762_output: 3925b0a4
ONNXTRT_Broadcast_506_output: 3c010a14
/encoder/layer.8/attention/self/Transpose_1_output_0: 3d844aba
/encoder/layer.8/attention/self/Add_output_0: 7f800000
/encoder/layer.6/attention/self/Reshape_3_output_0: 3c8ed533
encoder.layer.10.attention.self.key.bias_output: 3941e978
onnx::MatMul_1611_output: 3afcf5ea
/encoder/layer.11/attention/self/Transpose_output_0: 3d032242
/encoder/layer.10/attention/self/MatMul_output_0: 3f778cc4
onnx::MatMul_1648_output: 3ae8dcdf
/encoder/layer.9/attention/self/Reshape_2_output_0: 3d80a7ed
/encoder/layer.9/intermediate/intermediate_act_fn/Erf_output_0: 3c010a14
onnx::MatMul_1602_output: 3ab79a87
/encoder/layer.10/attention/self/value/MatMul_output_0: 3d0de804
onnx::MatMul_1610_output: 3b10f5c1
/encoder/layer.9/intermediate/dense/Add_output_0: 3e3cabbf
ONNXTRT_Broadcast_592_output: 3a7dbd7a
onnx::MatMul_1621_output: 3af274f7
ONNXTRT_Broadcast_689_output: 3ad1d953
/encoder/layer.7/attention/self/value/Add_output_0: 3ce3f8b1
/encoder/layer.7/intermediate/intermediate_act_fn/Add_output_0: 3c810a14
/encoder/layer.7/output/LayerNorm/LayerNormalization_output_0: 3e1a2089
ONNXTRT_Broadcast_490_output: 3ac66601
/encoder/layer.6/attention/self/MatMul_1_output_0: 3c8ed533
/encoder/layer.10/attention/output/dense/Add_output_0: 3c4ab12f
/encoder/layer.8/intermediate/dense/Add_output_0: 3df001cc
onnx::MatMul_1635_output: 3b16619a
/encoder/layer.10/intermediate/dense/MatMul_output_0: 3e0f9ba8
/encoder/layer.10/intermediate/dense/Add_output_0: 3e0f94a2
onnx::MatMul_1615_output: 3ab3ceb8
/encoder/layer.8/attention/self/value/MatMul_output_0: 3d0c051f
onnx::MatMul_1583_output: 3b031597
ONNXTRT_Broadcast_681_output: 3c367d3d
/encoder/layer.7/output/dense/MatMul_output_0: 3cc01ad2
/encoder/layer.10/output/dense/Add_output_0: 3fa91e5b
/encoder/layer.7/intermediate/intermediate_act_fn/Constant_2_output_0_output: 3b810a14
/encoder/layer.9/attention/self/Reshape_output_0: 3d5c181d
ONNXTRT_Broadcast_565_output: 3c010a14
/encoder/layer.7/intermediate/intermediate_act_fn/Mul_output_0: 3d212531
/encoder/layer.7/intermediate/intermediate_act_fn/Constant_1_output_0_output: 3c010a14
/encoder/layer.8/attention/self/Reshape_output_0: 3d57949f
/encoder/layer.10/attention/self/Reshape_3_output_0: 3c8a9e13
/encoder/layer.9/attention/self/Constant_12_output_0_output: 3d810a14
ONNXTRT_Broadcast_728_output: 3aa47f70
/encoder/layer.9/attention/self/Softmax_output_0: 3b402d3c
encoder.layer.10.attention.self.query.bias_output: 3c07b224
/encoder/layer.10/attention/output/LayerNorm/LayerNormalization_output_0: 3dd9e010
/encoder/layer.8/output/dense/MatMul_output_0: 3e00cde8
/encoder/layer.8/attention/self/Div_output_0: 3dcaed65
encoder.layer.10.intermediate.dense.bias_output: 3af02ad8
ONNXTRT_Broadcast_708_output: 3add93cc
encoder.layer.11.attention.self.key.bias_output: 3925b0a4
/Cast_output_0: 3c010a14
/Constant_13_output_0_output: 3c010a14
ONNXTRT_Broadcast_60_output: 3c010a14
/Sub_output_0: 3c010a14
/Constant_14_output_0_output: 7f800000
ONNXTRT_Broadcast_62_output: 7f800000
/Mul_1_output_0: 7f800000
encoder.layer.7.attention.output.dense.bias_output: 3a94112b
/encoder/layer.11/attention/self/value/MatMul_output_0: 3d022b71
ONNXTRT_Broadcast_738_output: 3af02ad8
/encoder/layer.10/intermediate/intermediate_act_fn/Add_output_0: 3c810a14
ONNXTRT_Broadcast_785_output: 3ab02b8e
/encoder/layer.11/attention/self/Reshape_output_0: 3d6b71f4
ONNXTRT_Broadcast_767_output: 3ad578fc
/encoder/layer.8/attention/self/Constant_12_output_0_output: 3d810a14
/encoder/layer.11/intermediate/intermediate_act_fn/Mul_output_0: 3d360c57
/encoder/layer.6/attention/output/dense/Add_output_0: 3c6a7c05
/encoder/layer.10/attention/self/value/Add_output_0: 3d0d024f
ONNXTRT_Broadcast_651_output: 3ab6096d
ONNXTRT_Broadcast_687_output: 3b00364c
ONNXTRT_Broadcast_736_output: 3b16619a
/encoder/layer.10/intermediate/intermediate_act_fn/Constant_output_0_output: 3c367d3d
onnx::MatMul_1608_output: 3ad120c7
encoder.layer.11.intermediate.dense.bias_output: 3b4fb76d
/encoder/layer.8/attention/self/MatMul_1_output_0: 3c982062
/encoder/layer.9/attention/self/value/MatMul_output_0: 3cfd22a4
/encoder/layer.8/intermediate/intermediate_act_fn/Constant_1_output_0_output: 3c010a14
/encoder/layer.11/attention/self/key/MatMul_output_0: 3d69d26a
ONNXTRT_Broadcast_579_output: 3aff4cfa
/encoder/layer.11/intermediate/intermediate_act_fn/Constant_output_0_output: 3c367d3d
ONNXTRT_Broadcast_567_output: 3b810a14
/encoder/layer.10/attention/self/Transpose_1_output_0: 3d5d37c8
/encoder/layer.8/attention/self/MatMul_output_0: 3f4aed65
/embeddings/word_embeddings/Gather_output_0: 3a98a999
/embeddings/token_type_embeddings/Gather_output_0: 39b47316
/embeddings/Add_output_0: 3a96c7e1
/embeddings/position_embeddings/Gather_output_0: 3acfbbfd
/embeddings/Add_1_output_0: 3bc1ea22
pooler_output: 3c010a14
/pooler/dense/Gemm_output_0: 3e3ba4e8
/embeddings/LayerNorm/LayerNormalization_output_0: 3d4901f9
onnx::MatMul_1494_output: 3b3be10c
ONNXTRT_Broadcast_107_output: 3b3be10c
/encoder/layer.0/attention/self/query/MatMul_output_0: 3d36760c
encoder.layer.0.attention.self.query.bias_output: 3bdabfc1
ONNXTRT_Broadcast_109_output: 3bdabfc1
/encoder/layer.0/attention/self/query/Add_output_0: 3d62273a
onnx::MatMul_1495_output: 3b705a34
ONNXTRT_Broadcast_111_output: 3b705a34
/encoder/layer.0/attention/self/key/MatMul_output_0: 3d8e845b
encoder.layer.0.attention.self.key.bias_output: 38b8fc4c
ONNXTRT_Broadcast_113_output: 38b8fc4c
/encoder/layer.0/attention/self/key/Add_output_0: 3d8e6c69
/encoder/layer.7/intermediate/intermediate_act_fn/Erf_output_0: 3c010a14
onnx::MatMul_1628_output: 3add93cc
ONNXTRT_Broadcast_626_output: 3b810a14
/encoder/layer.11/intermediate/intermediate_act_fn/Div_output_0: 3d84e011
ONNXTRT_Broadcast_563_output: 3c367d3d
/encoder/layer.7/intermediate/dense/MatMul_output_0: 3dcec44e
encoder.layer.8.attention.self.key.bias_output: 392baeb1
/encoder/layer.9/attention/output/LayerNorm/LayerNormalization_output_0: 3dea30e7
onnx::MatMul_1597_output: 3b029669
/encoder/layer.9/attention/self/key/MatMul_output_0: 3d573fde
/encoder/layer.6/attention/self/value/Add_output_0: 3d07db7b
/encoder/layer.6/attention/self/value/MatMul_output_0: 3d028275
/encoder/layer.0/attention/self/Reshape_output_0: 3d8e6c69
onnx::MatMul_1498_output: 3a9194ad
ONNXTRT_Broadcast_118_output: 3a9194ad
/encoder/layer.0/attention/self/value/MatMul_output_0: 3cf0f6bb
encoder.layer.0.attention.self.value.bias_output: 3ab8bce8
ONNXTRT_Broadcast_120_output: 3ab8bce8
/encoder/layer.0/attention/self/value/Add_output_0: 3cfc5875
/encoder/layer.7/intermediate/intermediate_act_fn/Constant_output_0_output: 3c367d3d
ONNXTRT_Broadcast_559_output: 3aed5227
/encoder/layer.7/attention/output/Add_output_0: 3e007da3
/encoder/layer.7/intermediate/dense/Add_output_0: 3dd5a78d
onnx::MatMul_1596_output: 3aed5227
ONNXTRT_Broadcast_740_output: 3c367d3d
ONNXTRT_Broadcast_718_output: 3d810a14
onnx::MatMul_1598_output: 3aff4cfa
ONNXTRT_Broadcast_799_output: 3c367d3d
ONNXTRT_Broadcast_769_output: 3a10d853
ONNXTRT_Broadcast_710_output: 39ffb731
onnx::MatMul_1595_output: 3abce0a6
/encoder/layer.0/attention/self/Reshape_1_output_0: 3cfc5875
/encoder/layer.0/attention/self/Transpose_output_0: 3cfc5875
encoder.layer.7.intermediate.dense.bias_output: 3b5ce19b
/encoder/layer.11/attention/self/Transpose_3_output_0: 3c7bdb69
/encoder/layer.7/attention/output/LayerNorm/LayerNormalization_output_0: 3e1242ac
onnx::MatMul_1609_output: 3b034cb5
/encoder/layer.8/intermediate/dense/MatMul_output_0: 3df4f515
/encoder/layer.11/attention/self/Div_output_0: 3dc1ac19
/encoder/layer.7/attention/output/dense/Add_output_0: 3c607a4e
ONNXTRT_Broadcast_551_output: 3a94112b
/encoder/layer.11/attention/self/Reshape_3_output_0: 3c7bdb69
ONNXTRT_Broadcast_649_output: 3ab3ceb8
/encoder/layer.7/attention/output/dense/MatMul_output_0: 3c9f548d
/encoder/layer.0/attention/self/Reshape_2_output_0: 3d62273a
/encoder/layer.0/attention/self/Transpose_1_output_0: 3d62273a
/encoder/layer.0/attention/self/Transpose_2_output_0: 3d8e6c69
/encoder/layer.0/attention/self/MatMul_output_0: 3f48eafe
/encoder/layer.0/attention/self/Constant_12_output_0_output: 3d810a14
ONNXTRT_Broadcast_128_output: 3d810a14
/encoder/layer.0/attention/self/Div_output_0: 3dc8eafe
/encoder/layer.0/attention/self/Add_output_0: 7f800000
/encoder/layer.0/attention/self/Softmax_output: 3c002eb8
/encoder/layer.0/attention/self/Softmax_output_0: 3c002eb8
/encoder/layer.8/output/Add_output_0: 3e27dd61
/encoder/layer.7/attention/self/Constant_12_output_0_output: 3d810a14
/encoder/layer.0/attention/self/MatMul_1_output_0: 3c8508c2
/encoder/layer.0/attention/self/Transpose_3_output_0: 3c8508c2
/encoder/layer.10/attention/self/query/Add_output_0: 3d5d37c8
/encoder/layer.9/attention/self/MatMul_output_0: 3f44a303
/encoder/layer.9/attention/self/Transpose_3_output_0: 3c93e230
/encoder/layer.11/attention/output/Add_output_0: 3d00fe9b
/encoder/layer.10/attention/self/Reshape_1_output_0: 3d0d024f
/encoder/layer.9/attention/self/Div_output_0: 3dc4a303
/encoder/layer.8/attention/self/Transpose_2_output_0: 3d57949f
ONNXTRT_Broadcast_748_output: 3af63272
ONNXTRT_Broadcast_746_output: 3b4ff3ea
encoder.layer.9.attention.self.value.bias_output: 3ab6096d
/encoder/layer.0/attention/self/Reshape_3_output_0: 3c8508c2
onnx::MatMul_1504_output: 3b0f8956
ONNXTRT_Broadcast_136_output: 3b0f8956
/encoder/layer.0/attention/output/dense/MatMul_output_0: 3ca923b3
encoder.layer.0.attention.output.dense.bias_output: 3a90b9ed
ONNXTRT_Broadcast_138_output: 3a90b9ed
/encoder/layer.0/attention/output/dense/Add_output_0: 3ca884da
/encoder/layer.0/attention/output/Add_output_0: 3d5a1898
ONNXTRT_Broadcast_817_output: 3a35591e
pooler.dense.bias_output: 3a35591e
/encoder/layer.0/attention/output/LayerNorm/LayerNormalization_output_0: 3d79934f
onnx::MatMul_1505_output: 3aed2694
ONNXTRT_Broadcast_146_output: 3aed2694
/encoder/layer.0/intermediate/dense/MatMul_output_0: 3dda55d3
encoder.layer.0.intermediate.dense.bias_output: 3b35851a
ONNXTRT_Broadcast_148_output: 3b35851a
/encoder/layer.0/intermediate/dense/Add_output_0: 3dddb144
/encoder/layer.0/intermediate/intermediate_act_fn/Constant_output_0_output: 3c367d3d
ONNXTRT_Broadcast_150_output: 3c367d3d
/encoder/layer.0/intermediate/intermediate_act_fn/Div_output_0: 3d9cc29e
/encoder/layer.0/intermediate/intermediate_act_fn/Erf_output_0: 3c010a14
/encoder/layer.0/intermediate/intermediate_act_fn/Constant_1_output_0_output: 3c010a14
ONNXTRT_Broadcast_152_output: 3c010a14
/encoder/layer.0/intermediate/intermediate_act_fn/Add_output_0: 3c810a14
/encoder/layer.0/intermediate/intermediate_act_fn/Mul_output_0: 3d6e8e4b
/encoder/layer.0/intermediate/intermediate_act_fn/Constant_2_output_0_output: 3b810a14
ONNXTRT_Broadcast_154_output: 3b810a14
/encoder/layer.0/intermediate/intermediate_act_fn/Mul_1_output_0: 3cee8e4b
onnx::MatMul_1506_output: 3b24ca0f
ONNXTRT_Broadcast_156_output: 3b24ca0f
/encoder/layer.0/output/dense/MatMul_output_0: 3e1e6ce1
encoder.layer.0.output.dense.bias_output: 3b2f42dd
ONNXTRT_Broadcast_158_output: 3b2f42dd
/encoder/layer.0/output/dense/Add_output_0: 3e1e110a
/encoder/layer.0/output/Add_output_0: 3ed331a7
/pooler/dense/Gemm_output: 3e3bd824
pooler.dense.weight_output: 3b137bf0
/encoder/layer.0/output/LayerNorm/LayerNormalization_output_0: 3d8bbd18
onnx::MatMul_1507_output: 3b0b4296
ONNXTRT_Broadcast_166_output: 3b0b4296
/encoder/layer.1/attention/self/query/MatMul_output_0: 3d4ef365
encoder.layer.1.attention.self.query.bias_output: 3be53810
ONNXTRT_Broadcast_168_output: 3be53810
/encoder/layer.1/attention/self/query/Add_output_0: 3d5f887f
onnx::MatMul_1508_output: 3b0d5717
ONNXTRT_Broadcast_170_output: 3b0d5717
/encoder/layer.1/attention/self/key/MatMul_output_0: 3d69575e
encoder.layer.1.attention.self.key.bias_output: 394ac6bd
ONNXTRT_Broadcast_172_output: 394ac6bd
/encoder/layer.1/attention/self/key/Add_output_0: 3d6a5606
encoder.layer.6.attention.output.dense.bias_output: 3a9d1ba3
/encoder/layer.7/attention/self/Softmax_output_0: 3b418296
ONNXTRT_Broadcast_640_output: 3bc582e6
/encoder/layer.11/attention/self/MatMul_1_output_0: 3c7bdb69
/encoder/layer.10/attention/self/Reshape_output_0: 3d6ca8d0
/encoder/layer.6/output/dense/Add_output_0: 3e8c15f3
/encoder/layer.7/attention/self/Div_output_0: 3dfc02cc
/encoder/layer.7/attention/self/Transpose_2_output_0: 3d62cdc3
/encoder/layer.7/attention/self/Transpose_1_output_0: 3d8d9a5d
/encoder/layer.9/attention/self/key/Add_output_0: 3d5c181d
/encoder/layer.6/attention/self/Reshape_2_output_0: 3d777fe4
ONNXTRT_Broadcast_561_output: 3b5ce19b
/encoder/layer.1/attention/self/Reshape_output_0: 3d6a5606
onnx::MatMul_1511_output: 3aac8cff
ONNXTRT_Broadcast_177_output: 3aac8cff
/encoder/layer.1/attention/self/value/MatMul_output_0: 3d01104e
encoder.layer.1.attention.self.value.bias_output: 3a98eb8d
ONNXTRT_Broadcast_179_output: 3a98eb8d
/encoder/layer.1/attention/self/value/Add_output_0: 3d012782
encoder.layer.10.output.dense.bias_output: 3af63272
/encoder/layer.7/attention/self/Softmax_output: 3b418296
onnx::MatMul_1638_output: 3b1ecd83
ONNXTRT_Broadcast_541_output: 3d810a14
/encoder/layer.7/attention/self/Transpose_3_output_0: 3c84b2a4
/encoder/layer.7/attention/self/Add_output_0: 7f800000
/encoder/layer.10/attention/output/Add_output_0: 3e399e29
/encoder/layer.7/attention/self/MatMul_output_0: 3f7c02cc
/encoder/layer.7/attention/self/Reshape_2_output_0: 3d8d9a5d
/encoder/layer.10/intermediate/intermediate_act_fn/Mul_1_output_0: 3e0f94a2
/encoder/layer.10/output/LayerNorm/LayerNormalization_output_0: 3d01b966
/encoder/layer.1/attention/self/Reshape_1_output_0: 3d012782
/encoder/layer.1/attention/self/Transpose_output_0: 3d012782
ONNXTRT_Broadcast_699_output: 3c07b224
/encoder/layer.7/attention/self/MatMul_1_output_0: 3c84b2a4
/encoder/layer.9/attention/output/dense/MatMul_output_0: 3c94a92b
/encoder/layer.9/output/Add_output_0: 3f518554
/encoder/layer.11/attention/self/query/MatMul_output_0: 3d4ee656
/encoder/layer.10/output/dense/MatMul_output_0: 3fa8ed61
/encoder/layer.9/attention/self/MatMul_1_output_0: 3c93e230
ONNXTRT_Broadcast_795_output: 3ae8dcdf
/encoder/layer.11/intermediate/dense/MatMul_output_0: 3dbb6417
/encoder/layer.7/output/dense/Add_output_0: 3cc1c9dc
/encoder/layer.10/attention/self/Softmax_output_0: 3b3b1c92
/encoder/layer.1/attention/self/Reshape_2_output_0: 3d5f887f
/encoder/layer.1/attention/self/Transpose_1_output_0: 3d5f887f
/encoder/layer.1/attention/self/Transpose_2_output_0: 3d6a5606
/encoder/layer.1/attention/self/MatMul_output_0: 3f808b51
/encoder/layer.1/attention/self/Constant_12_output_0_output: 3d810a14
ONNXTRT_Broadcast_187_output: 3d810a14
/encoder/layer.1/attention/self/Div_output_0: 3e008b51
/encoder/layer.1/attention/self/Add_output_0: 7f800000
/encoder/layer.1/attention/self/Softmax_output: 3bc18928
/encoder/layer.1/attention/self/Softmax_output_0: 3bc18928
encoder.layer.8.attention.output.dense.bias_output: 3a76e263
/encoder/layer.9/attention/self/query/MatMul_output_0: 3d767ef1
/encoder/layer.1/attention/self/MatMul_1_output_0: 3c92aee2
/encoder/layer.1/attention/self/Transpose_3_output_0: 3c92aee2
ONNXTRT_Broadcast_679_output: 3b3be982
ONNXTRT_Broadcast_581_output: 3bbf1b05
/encoder/layer.7/output/Add_output_0: 3e0cec0f
/encoder/layer.8/intermediate/intermediate_act_fn/Constant_2_output_0_output: 3b810a14
/encoder/layer.8/attention/self/key/MatMul_output_0: 3d6120fa
/encoder/layer.9/intermediate/intermediate_act_fn/Div_output_0: 3e056915
/encoder/layer.7/intermediate/intermediate_act_fn/Mul_1_output_0: 3ca12531
/encoder/layer.10/intermediate/intermediate_act_fn/Constant_1_output_0_output: 3c010a14
/encoder/layer.7/attention/self/Transpose_output_0: 3ce3f8b1
/encoder/layer.11/attention/self/Reshape_1_output_0: 3d032242
/encoder/layer.8/attention/self/value/Add_output_0: 3d10d00d
/encoder/layer.1/attention/self/Reshape_3_output_0: 3c92aee2
onnx::MatMul_1517_output: 3aefe148
ONNXTRT_Broadcast_195_output: 3aefe148
/encoder/layer.1/attention/output/dense/MatMul_output_0: 3c7bc64e
encoder.layer.1.attention.output.dense.bias_output: 3b150fc1
ONNXTRT_Broadcast_197_output: 3b150fc1
/encoder/layer.1/attention/output/dense/Add_output_0: 3c7b7aa8
/encoder/layer.1/attention/output/Add_output_0: 3d8b016d
/pooler/Gather_output_0: 3d620b98
/encoder/layer.1/attention/output/LayerNorm/LayerNormalization_output_0: 3e535d01
onnx::MatMul_1518_output: 3afa0a4a
ONNXTRT_Broadcast_205_output: 3afa0a4a
/encoder/layer.1/intermediate/dense/MatMul_output_0: 3e09165f
encoder.layer.1.intermediate.dense.bias_output: 3b2752df
ONNXTRT_Broadcast_207_output: 3b2752df
/encoder/layer.1/intermediate/dense/Add_output_0: 3e0c88a7
/encoder/layer.1/intermediate/intermediate_act_fn/Constant_output_0_output: 3c367d3d
ONNXTRT_Broadcast_209_output: 3c367d3d
/encoder/layer.1/intermediate/intermediate_act_fn/Div_output_0: 3dc6beab
/encoder/layer.1/intermediate/intermediate_act_fn/Erf_output_0: 3c010a14
/encoder/layer.1/intermediate/intermediate_act_fn/Constant_1_output_0_output: 3c010a14
ONNXTRT_Broadcast_211_output: 3c010a14
/encoder/layer.1/intermediate/intermediate_act_fn/Add_output_0: 3c810a14
/encoder/layer.1/intermediate/intermediate_act_fn/Mul_output_0: 3d4df79d
/encoder/layer.1/intermediate/intermediate_act_fn/Constant_2_output_0_output: 3b810a14
ONNXTRT_Broadcast_213_output: 3b810a14
/encoder/layer.1/intermediate/intermediate_act_fn/Mul_1_output_0: 3ccdf79d
onnx::MatMul_1519_output: 3b119b14
ONNXTRT_Broadcast_215_output: 3b119b14
/encoder/layer.1/output/dense/MatMul_output_0: 3de346b0
encoder.layer.1.output.dense.bias_output: 3b150b1a
ONNXTRT_Broadcast_217_output: 3b150b1a
/encoder/layer.1/output/dense/Add_output_0: 3de366e2
/encoder/layer.1/output/Add_output_0: 3ea1cb23
/encoder/layer.9/attention/self/Transpose_1_output_0: 3d80a7ed
last_hidden_state: 3d5fa83b
/encoder/layer.1/output/LayerNorm/LayerNormalization_output_0: 3da8f3c2
onnx::MatMul_1520_output: 3b5683c7
ONNXTRT_Broadcast_225_output: 3b5683c7
/encoder/layer.2/attention/self/query/MatMul_output_0: 3d827a0e
encoder.layer.2.attention.self.query.bias_output: 3b6bf82b
ONNXTRT_Broadcast_227_output: 3b6bf82b
/encoder/layer.2/attention/self/query/Add_output_0: 3d8a6044
onnx::MatMul_1521_output: 3b4c5cd6
ONNXTRT_Broadcast_229_output: 3b4c5cd6
/encoder/layer.2/attention/self/key/MatMul_output_0: 3d71fea9
encoder.layer.2.attention.self.key.bias_output: 38e9c689
ONNXTRT_Broadcast_231_output: 38e9c689
/encoder/layer.2/attention/self/key/Add_output_0: 3d7356e2
/encoder/layer.9/output/LayerNorm/LayerNormalization_output_0: 3db22e0d
/encoder/layer.8/attention/self/Reshape_1_output_0: 3d10d00d
encoder.layer.9.output.dense.bias_output: 3ad1d953
/encoder/layer.11/attention/self/Softmax_output_0: 3b3c79cc
/encoder/layer.9/attention/self/Add_output_0: 7f800000
/encoder/layer.9/attention/output/Add_output_0: 3e39ed48
/encoder/layer.7/attention/self/value/MatMul_output_0: 3ce68bfa
ONNXTRT_Broadcast_531_output: 3aa73b4b
ONNXTRT_Broadcast_630_output: 3ad5243f
/encoder/layer.10/output/Add_output_0: 3fb15c2e
/encoder/layer.2/attention/self/Reshape_output_0: 3d7356e2
onnx::MatMul_1524_output: 3aaf1dd2
ONNXTRT_Broadcast_236_output: 3aaf1dd2
/encoder/layer.2/attention/self/value/MatMul_output_0: 3cedf74d
encoder.layer.2.attention.self.value.bias_output: 3b05eef4
ONNXTRT_Broadcast_238_output: 3b05eef4
/encoder/layer.2/attention/self/value/Add_output_0: 3cf9461b
/encoder/layer.11/attention/self/Softmax_output: 3b3c79cc
/encoder/layer.11/attention/self/key/Add_output_0: 3d6b71f4
/encoder/layer.8/intermediate/intermediate_act_fn/Mul_output_0: 3d4d95e8
/encoder/layer.10/attention/self/key/MatMul_output_0: 3d6ce69e
onnx::MatMul_1634_output: 3abc8ea7
/encoder/layer.10/attention/self/Softmax_output: 3b3b1c92
ONNXTRT_Broadcast_677_output: 3b56e2c7
/encoder/layer.6/attention/self/Add_output_0: 7f800000
onnx::MatMul_1589_output: 3aa73b4b
/encoder/layer.7/attention/self/Reshape_output_0: 3d62cdc3
/encoder/layer.9/attention/self/value/Add_output_0: 3d0614c4
/encoder/layer.8/intermediate/intermediate_act_fn/Div_output_0: 3da9b5e9
/encoder/layer.6/attention/self/Reshape_1_output_0: 3d07db7b
/encoder/layer.2/attention/self/Reshape_1_output_0: 3cf9461b
/encoder/layer.2/attention/self/Transpose_output_0: 3cf9461b
ONNXTRT_Broadcast_801_output: 3c010a14
/encoder/layer.9/intermediate/intermediate_act_fn/Mul_1_output_0: 3dba3624
onnx::MatMul_1637_output: 3b6e4463
/encoder/layer.8/attention/self/Transpose_3_output_0: 3c982062
/encoder/layer.11/attention/self/query/Add_output_0: 3d5b0d76
onnx::MatMul_1586_output: 3b09b9d2
/encoder/layer.6/intermediate/intermediate_act_fn/Mul_output_0: 3d0ffaa2
ONNXTRT_Broadcast_533_output: 3ac1f178
ONNXTRT_Broadcast_608_output: 3ad120c7
ONNXTRT_Broadcast_797_output: 3b4fb76d
/encoder/layer.9/intermediate/intermediate_act_fn/Mul_output_0: 3e3a3624
/encoder/layer.2/attention/self/Reshape_2_output_0: 3d8a6044
/encoder/layer.2/attention/self/Transpose_1_output_0: 3d8a6044
/encoder/layer.2/attention/self/Transpose_2_output_0: 3d7356e2
/encoder/layer.2/attention/self/MatMul_output_0: 3fdd6afb
/encoder/layer.2/attention/self/Constant_12_output_0_output: 3d810a14
ONNXTRT_Broadcast_246_output: 3d810a14
/encoder/layer.2/attention/self/Div_output_0: 3e5d6afb
/encoder/layer.2/attention/self/Add_output_0: 7f800000
/encoder/layer.2/attention/self/Softmax_output: 3ba162c5
/encoder/layer.2/attention/self/Softmax_output_0: 3ba162c5
/encoder/layer.11/attention/self/Transpose_1_output_0: 3d5b0d76
/encoder/layer.10/attention/self/MatMul_1_output_0: 3c8a9e13
/encoder/layer.2/attention/self/MatMul_1_output_0: 3c9abd2f
/encoder/layer.2/attention/self/Transpose_3_output_0: 3c9abd2f
/encoder/layer.10/intermediate/intermediate_act_fn/Mul_output_0: 3e8f94a2
/encoder/layer.10/attention/self/query/MatMul_output_0: 3d51e0bf
/encoder/layer.8/attention/self/Softmax_output_0: 3b40544a
ONNXTRT_Broadcast_628_output: 3b10f5c1
/encoder/layer.9/output/dense/Add_output_0: 3f673e00
/encoder/layer.9/attention/self/Reshape_1_output_0: 3d0614c4
ONNXTRT_Broadcast_659_output: 3d810a14
encoder.layer.8.output.dense.bias_output: 3ad5243f
/encoder/layer.10/intermediate/intermediate_act_fn/Div_output_0: 3dcb0dbb
/encoder/layer.2/attention/self/Reshape_3_output_0: 3c9abd2f
onnx::MatMul_1530_output: 3ac60388
ONNXTRT_Broadcast_254_output: 3ac60388
/encoder/layer.2/attention/output/dense/MatMul_output_0: 3c893642
encoder.layer.2.attention.output.dense.bias_output: 3b17f270
ONNXTRT_Broadcast_256_output: 3b17f270
/encoder/layer.2/attention/output/dense/Add_output_0: 3c804abd
/encoder/layer.2/attention/output/Add_output_0: 3dace981
/encoder/layer.2/attention/output/LayerNorm/LayerNormalization_output_0: 3d469f29
onnx::MatMul_1531_output: 3b3c10be
ONNXTRT_Broadcast_264_output: 3b3c10be
/encoder/layer.2/intermediate/dense/MatMul_output_0: 3e1626ef
encoder.layer.2.intermediate.dense.bias_output: 3b828438
ONNXTRT_Broadcast_266_output: 3b828438
/encoder/layer.2/intermediate/dense/Add_output_0: 3e1a4763
/encoder/layer.2/intermediate/intermediate_act_fn/Constant_output_0_output: 3c367d3d
ONNXTRT_Broadcast_268_output: 3c367d3d
/encoder/layer.2/intermediate/intermediate_act_fn/Div_output_0: 3dda2eea
/encoder/layer.2/intermediate/intermediate_act_fn/Erf_output_0: 3c010a14
/encoder/layer.2/intermediate/intermediate_act_fn/Constant_1_output_0_output: 3c010a14
ONNXTRT_Broadcast_270_output: 3c010a14
/encoder/layer.2/intermediate/intermediate_act_fn/Add_output_0: 3c810a14
/encoder/layer.2/intermediate/intermediate_act_fn/Mul_output_0: 3de71614
/encoder/layer.2/intermediate/intermediate_act_fn/Constant_2_output_0_output: 3b810a14
ONNXTRT_Broadcast_272_output: 3b810a14
/encoder/layer.2/intermediate/intermediate_act_fn/Mul_1_output_0: 3d671614
onnx::MatMul_1532_output: 3b0bb774
ONNXTRT_Broadcast_274_output: 3b0bb774
/encoder/layer.2/output/dense/MatMul_output_0: 3fef70c8
encoder.layer.2.output.dense.bias_output: 3b0fe580
ONNXTRT_Broadcast_276_output: 3b0fe580
/encoder/layer.2/output/dense/Add_output_0: 3fef7ff3
/encoder/layer.2/output/Add_output_0: 3e86deae
/encoder/layer.2/output/LayerNorm/LayerNormalization_output_0: 3d9cfc25
onnx::MatMul_1533_output: 3b13f514
ONNXTRT_Broadcast_284_output: 3b13f514
/encoder/layer.3/attention/self/query/MatMul_output_0: 3d5438ff
encoder.layer.3.attention.self.query.bias_output: 3b9c2148
ONNXTRT_Broadcast_286_output: 3b9c2148
/encoder/layer.3/attention/self/query/Add_output_0: 3d5afb7b
onnx::MatMul_1534_output: 3b1e6e97
ONNXTRT_Broadcast_288_output: 3b1e6e97
/encoder/layer.3/attention/self/key/MatMul_output_0: 3d420066
encoder.layer.3.attention.self.key.bias_output: 39348561
ONNXTRT_Broadcast_290_output: 39348561
/encoder/layer.3/attention/self/key/Add_output_0: 3d419a0a
ONNXTRT_Broadcast_669_output: 3aa7ae6d
ONNXTRT_Broadcast_502_output: 3b4c0b3f
ONNXTRT_Broadcast_520_output: 3adf146d
ONNXTRT_Broadcast_510_output: 3b1cec18
/encoder/layer.11/attention/self/MatMul_output_0: 3f41ac19
encoder.layer.8.attention.self.query.bias_output: 3bbf1b05
encoder.layer.6.output.dense.bias_output: 3ad213e1
/encoder/layer.6/output/LayerNorm/LayerNormalization_output_0: 3df966fc
ONNXTRT_Broadcast_610_output: 3a76e263
encoder.layer.9.attention.self.query.bias_output: 3bc582e6
/encoder/layer.6/output/dense/MatMul_output_0: 3e89fcc3
/encoder/layer.3/attention/self/Reshape_output_0: 3d419a0a
onnx::MatMul_1537_output: 3ab0f9ab
ONNXTRT_Broadcast_295_output: 3ab0f9ab
/encoder/layer.3/attention/self/value/MatMul_output_0: 3d0e3d8f
encoder.layer.3.attention.self.value.bias_output: 3a8927ae
ONNXTRT_Broadcast_297_output: 3a8927ae
/encoder/layer.3/attention/self/value/Add_output_0: 3d122812
/encoder/layer.10/attention/self/Transpose_output_0: 3d0d024f
ONNXTRT_Broadcast_524_output: 3b09b9d2
ONNXTRT_Broadcast_685_output: 3b810a14
onnx::MatMul_1585_output: 3adf146d
encoder.layer.7.attention.self.key.bias_output: 39306b05
encoder.layer.7.attention.self.value.bias_output: 3ac1f178
/encoder/layer.8/attention/output/dense/MatMul_output_0: 3cb354e1
/encoder/layer.8/attention/output/Add_output_0: 3e220db0
ONNXTRT_Broadcast_667_output: 3af274f7
/encoder/layer.10/attention/self/Add_output_0: 7f800000
encoder.layer.9.intermediate.dense.bias_output: 3b3be982
onnx::MatMul_1584_output: 3b1cec18
/encoder/layer.3/attention/self/Reshape_1_output_0: 3d122812
/encoder/layer.3/attention/self/Transpose_output_0: 3d122812
ONNXTRT_Broadcast_526_output: 39306b05
/encoder/layer.7/attention/self/key/MatMul_output_0: 3d59cb41
onnx::MatMul_1636_output: 3b4ff3ea
encoder.layer.7.attention.self.query.bias_output: 3bdf5c58
onnx::MatMul_1623_output: 3b00364c
/encoder/layer.8/attention/self/Softmax_output: 3b40544a
/encoder/layer.7/attention/self/query/MatMul_output_0: 3d8371b6
/encoder/layer.11/intermediate/intermediate_act_fn/Constant_1_output_0_output: 3c010a14
/encoder/layer.8/output/dense/Add_output_0: 3e0381b4
/encoder/layer.9/attention/self/Transpose_output_0: 3d0614c4
ONNXTRT_Broadcast_644_output: 394c963d
ONNXTRT_Broadcast_744_output: 3b810a14
/encoder/layer.3/attention/self/Reshape_2_output_0: 3d5afb7b
/encoder/layer.3/attention/self/Transpose_1_output_0: 3d5afb7b
/encoder/layer.3/attention/self/Transpose_2_output_0: 3d419a0a
/encoder/layer.3/attention/self/MatMul_output_0: 3f6b3bdc
/encoder/layer.3/attention/self/Constant_12_output_0_output: 3d810a14
ONNXTRT_Broadcast_305_output: 3d810a14
/encoder/layer.3/attention/self/Div_output_0: 3deb3bdc
/encoder/layer.3/attention/self/Add_output_0: 7f800000
/encoder/layer.3/attention/self/Softmax_output: 3b807f27
/encoder/layer.3/attention/self/Softmax_output_0: 3b807f27
encoder.layer.7.output.dense.bias_output: 3ad6cce3
encoder.layer.11.attention.output.dense.bias_output: 3a80e052
/encoder/layer.3/attention/self/MatMul_1_output_0: 3ca45ebc
/encoder/layer.3/attention/self/Transpose_3_output_0: 3ca45ebc
/encoder/layer.6/intermediate/intermediate_act_fn/Mul_1_output_0: 3c8ffaa2
ONNXTRT_Broadcast_508_output: 3b810a14
/encoder/layer.11/attention/self/value/Add_output_0: 3d032242
ONNXTRT_Broadcast_642_output: 3b3c8abc
/encoder/layer.9/attention/output/dense/Add_output_0: 3c94aede
ONNXTRT_Broadcast_549_output: 3abce0a6
encoder.layer.9.attention.self.key.bias_output: 394c963d
ONNXTRT_Broadcast_583_output: 3b31f8cb
/encoder/layer.9/intermediate/intermediate_act_fn/Constant_output_0_output: 3c367d3d
/encoder/layer.10/attention/self/Reshape_2_output_0: 3d5d37c8
/encoder/layer.8/attention/self/Reshape_2_output_0: 3d844aba
/encoder/layer.6/intermediate/intermediate_act_fn/Constant_2_output_0_output: 3b810a14
/encoder/layer.3/attention/self/Reshape_3_output_0: 3ca45ebc
onnx::MatMul_1543_output: 3acaf837
ONNXTRT_Broadcast_313_output: 3acaf837
/encoder/layer.3/attention/output/dense/MatMul_output_0: 3c7b2cbc
encoder.layer.3.attention.output.dense.bias_output: 3aebc693
ONNXTRT_Broadcast_315_output: 3aebc693
/encoder/layer.3/attention/output/dense/Add_output_0: 3c7d1f13
/encoder/layer.3/attention/output/Add_output_0: 3db09cbb
ONNXTRT_Broadcast_787_output: 3a80e052
/encoder/layer.11/attention/output/dense/Add_output_0: 3c3c2d0d
/encoder/layer.3/attention/output/LayerNorm/LayerNormalization_output_0: 3e83908c
onnx::MatMul_1544_output: 3b2a6e64
ONNXTRT_Broadcast_323_output: 3b2a6e64
/encoder/layer.3/intermediate/dense/MatMul_output_0: 3defc67d
encoder.layer.3.intermediate.dense.bias_output: 3b351580
ONNXTRT_Broadcast_325_output: 3b351580
/encoder/layer.3/intermediate/dense/Add_output_0: 3df13de7
/encoder/layer.3/intermediate/intermediate_act_fn/Constant_output_0_output: 3c367d3d
ONNXTRT_Broadcast_327_output: 3c367d3d
/encoder/layer.3/intermediate/intermediate_act_fn/Div_output_0: 3daa956f
/encoder/layer.3/intermediate/intermediate_act_fn/Erf_output_0: 3c010a14
/encoder/layer.3/intermediate/intermediate_act_fn/Constant_1_output_0_output: 3c010a14
ONNXTRT_Broadcast_329_output: 3c010a14
/encoder/layer.3/intermediate/intermediate_act_fn/Add_output_0: 3c810a14
/encoder/layer.3/intermediate/intermediate_act_fn/Mul_output_0: 3cea9f49
/encoder/layer.3/intermediate/intermediate_act_fn/Constant_2_output_0_output: 3b810a14
ONNXTRT_Broadcast_331_output: 3b810a14
/encoder/layer.3/intermediate/intermediate_act_fn/Mul_1_output_0: 3c6a9f49
onnx::MatMul_1545_output: 3b5a58f5
ONNXTRT_Broadcast_333_output: 3b5a58f5
/encoder/layer.3/output/dense/MatMul_output_0: 3f098430
encoder.layer.3.output.dense.bias_output: 3ad4ea20
ONNXTRT_Broadcast_335_output: 3ad4ea20
/encoder/layer.3/output/dense/Add_output_0: 3f09fdf5
/encoder/layer.3/output/Add_output_0: 3e8904ee
/encoder/layer.11/output/Add_output_0: 3e2714a5
/encoder/layer.11/output/dense/Add_output_0: 3d0fef62
/encoder/layer.3/output/LayerNorm/LayerNormalization_output_0: 3dcfed05
onnx::MatMul_1546_output: 3b07eb1e
ONNXTRT_Broadcast_343_output: 3b07eb1e
/encoder/layer.4/attention/self/query/MatMul_output_0: 3d639e5f
encoder.layer.4.attention.self.query.bias_output: 3ba17b01
ONNXTRT_Broadcast_345_output: 3ba17b01
/encoder/layer.4/attention/self/query/Add_output_0: 3d708f2a
onnx::MatMul_1547_output: 3b0901fe
ONNXTRT_Broadcast_347_output: 3b0901fe
/encoder/layer.4/attention/self/key/MatMul_output_0: 3d4adf9a
encoder.layer.4.attention.self.key.bias_output: 3910aedb
ONNXTRT_Broadcast_349_output: 3910aedb
/encoder/layer.4/attention/self/key/Add_output_0: 3d4caad9
ONNXTRT_Broadcast_742_output: 3c010a14
onnx::MatMul_1625_output: 3b080ea6
ONNXTRT_Broadcast_569_output: 3b029669
/encoder/layer.8/attention/self/Transpose_output_0: 3d10d00d
/encoder/layer.6/intermediate/intermediate_act_fn/Div_output_0: 3d693041
/encoder/layer.6/intermediate/intermediate_act_fn/Constant_1_output_0_output: 3c010a14
onnx::MatMul_1647_output: 3ab02b8e
ONNXTRT_Broadcast_500_output: 3b031597
/encoder/layer.11/intermediate/intermediate_act_fn/Add_output_0: 3c810a14
ONNXTRT_Broadcast_758_output: 3bd3aa02
/encoder/layer.11/intermediate/intermediate_act_fn/Erf_output_0: 3c010a14
/encoder/layer.6/attention/output/dense/MatMul_output_0: 3c89610c
/encoder/layer.4/attention/self/Reshape_output_0: 3d4caad9
onnx::MatMul_1550_output: 3ab81e6c
ONNXTRT_Broadcast_354_output: 3ab81e6c
/encoder/layer.4/attention/self/value/MatMul_output_0: 3d0d9e6a
encoder.layer.4.attention.self.value.bias_output: 3a5e6a4b
ONNXTRT_Broadcast_356_output: 3a5e6a4b
/encoder/layer.4/attention/self/value/Add_output_0: 3d0d1f8f
/encoder/layer.6/intermediate/dense/Add_output_0: 3da4e3a0
/encoder/layer.7/attention/self/key/Add_output_0: 3d62cdc3
encoder.layer.11.attention.self.value.bias_output: 3a10d853
ONNXTRT_Broadcast_522_output: 3bdf5c58
ONNXTRT_Broadcast_504_output: 3c367d3d
ONNXTRT_Broadcast_585_output: 392baeb1
ONNXTRT_Broadcast_600_output: 3d810a14
/encoder/layer.6/attention/output/Add_output_0: 3dffe9e5
ONNXTRT_Broadcast_492_output: 3a9d1ba3
/encoder/layer.9/output/dense/MatMul_output_0: 3f5eb51f
ONNXTRT_Broadcast_638_output: 3afcf5ea
ONNXTRT_Broadcast_697_output: 3b322f4c
/encoder/layer.4/attention/self/Reshape_1_output_0: 3d0d1f8f
/encoder/layer.4/attention/self/Transpose_output_0: 3d0d1f8f
/encoder/layer.7/attention/self/Reshape_1_output_0: 3ce3f8b1
onnx::MatMul_1612_output: 3b3c8abc
ONNXTRT_Broadcast_703_output: 3941e978
/encoder/layer.6/intermediate/intermediate_act_fn/Constant_output_0_output: 3c367d3d
/encoder/layer.6/intermediate/intermediate_act_fn/Add_output_0: 3c810a14
/encoder/layer.10/attention/self/Transpose_2_output_0: 3d6ca8d0
encoder.layer.6.intermediate.dense.bias_output: 3b4c0b3f
/encoder/layer.6/attention/output/LayerNorm/LayerNormalization_output_0: 3e414d28
ONNXTRT_Broadcast_571_output: 3ad6cce3
encoder.layer.11.attention.self.query.bias_output: 3bd3aa02
/encoder/layer.6/output/Add_output_0: 3e37fe65
/encoder/layer.4/attention/self/Reshape_2_output_0: 3d708f2a
/encoder/layer.4/attention/self/Transpose_1_output_0: 3d708f2a
/encoder/layer.4/attention/self/Transpose_2_output_0: 3d4caad9
/encoder/layer.4/attention/self/MatMul_output_0: 3f42d166
/encoder/layer.4/attention/self/Constant_12_output_0_output: 3d810a14
ONNXTRT_Broadcast_364_output: 3d810a14
/encoder/layer.4/attention/self/Div_output_0: 3dc2d166
/encoder/layer.4/attention/self/Add_output_0: 7f800000
/encoder/layer.4/attention/self/Softmax_output: 3b7f9aab
/encoder/layer.4/attention/self/Softmax_output_0: 3b7f9aab
/encoder/layer.6/attention/self/Reshape_output_0: 3d652b93
onnx::MatMul_1576_output: 3aaf223d
/encoder/layer.4/attention/self/MatMul_1_output_0: 3ca63947
/encoder/layer.4/attention/self/Transpose_3_output_0: 3ca63947
/encoder/layer.11/attention/self/Constant_12_output_0_output: 3d810a14
/encoder/layer.10/attention/output/dense/MatMul_output_0: 3c46b055
/encoder/layer.11/attention/output/dense/MatMul_output_0: 3c3c27c8
/encoder/layer.6/intermediate/intermediate_act_fn/Erf_output_0: 3c010a14
/encoder/layer.8/intermediate/intermediate_act_fn/Constant_output_0_output: 3c367d3d
/encoder/layer.7/attention/self/Reshape_3_output_0: 3c84b2a4
/encoder/layer.11/attention/output/LayerNorm/LayerNormalization_output_0: 3d32f407
/encoder/layer.9/attention/self/query/Add_output_0: 3d80a7ed
/encoder/layer.10/attention/self/Transpose_3_output_0: 3c8a9e13
/encoder/layer.9/attention/self/Transpose_2_output_0: 3d5c181d
/encoder/layer.4/attention/self/Reshape_3_output_0: 3ca63947
onnx::MatMul_1556_output: 3ad2efe0
ONNXTRT_Broadcast_372_output: 3ad2efe0
/encoder/layer.4/attention/output/dense/MatMul_output_0: 3c937934
encoder.layer.4.attention.output.dense.bias_output: 3a85a6a1
ONNXTRT_Broadcast_374_output: 3a85a6a1
/encoder/layer.4/attention/output/dense/Add_output_0: 3c8a259d
/encoder/layer.4/attention/output/Add_output_0: 3de7c8bd
ONNXTRT_Broadcast_807_output: 3a969c5b
encoder.layer.11.output.dense.bias_output: 3a969c5b
/encoder/layer.4/attention/output/LayerNorm/LayerNormalization_output_0: 3e851700
onnx::MatMul_1557_output: 3b143664
ONNXTRT_Broadcast_382_output: 3b143664
/encoder/layer.4/intermediate/dense/MatMul_output_0: 3def3e18
encoder.layer.4.intermediate.dense.bias_output: 3b714aba
ONNXTRT_Broadcast_384_output: 3b714aba
/encoder/layer.4/intermediate/dense/Add_output_0: 3deede5b
/encoder/layer.4/intermediate/intermediate_act_fn/Constant_output_0_output: 3c367d3d
ONNXTRT_Broadcast_386_output: 3c367d3d
/encoder/layer.4/intermediate/intermediate_act_fn/Div_output_0: 3da8e7d5
/encoder/layer.4/intermediate/intermediate_act_fn/Erf_output_0: 3c010a14
/encoder/layer.4/intermediate/intermediate_act_fn/Constant_1_output_0_output: 3c010a14
ONNXTRT_Broadcast_388_output: 3c010a14
/encoder/layer.4/intermediate/intermediate_act_fn/Add_output_0: 3c810a14
/encoder/layer.4/intermediate/intermediate_act_fn/Mul_output_0: 3d20cae3
/encoder/layer.4/intermediate/intermediate_act_fn/Constant_2_output_0_output: 3b810a14
ONNXTRT_Broadcast_390_output: 3b810a14
/encoder/layer.4/intermediate/intermediate_act_fn/Mul_1_output_0: 3ca0cae3
onnx::MatMul_1558_output: 3b5cbd1a
ONNXTRT_Broadcast_392_output: 3b5cbd1a
/encoder/layer.4/output/dense/MatMul_output_0: 3f10f8fb
encoder.layer.4.output.dense.bias_output: 3ae4164d
ONNXTRT_Broadcast_394_output: 3ae4164d
/encoder/layer.4/output/dense/Add_output_0: 3f112584
/encoder/layer.4/output/Add_output_0: 3e404b7d
/encoder/layer.11/output/dense/MatMul_output_0: 3d48d623
ONNXTRT_Broadcast_805_output: 3aeeb99c
/encoder/layer.4/output/LayerNorm/LayerNormalization_output_0: 3de912a7
onnx::MatMul_1559_output: 3b062edf
ONNXTRT_Broadcast_402_output: 3b062edf
/encoder/layer.5/attention/self/query/MatMul_output_0: 3d642a3b
encoder.layer.5.attention.self.query.bias_output: 3b75a7bc
ONNXTRT_Broadcast_404_output: 3b75a7bc
/encoder/layer.5/attention/self/query/Add_output_0: 3d705fcb
onnx::MatMul_1560_output: 3b12ddef
ONNXTRT_Broadcast_406_output: 3b12ddef
/encoder/layer.5/attention/self/key/MatMul_output_0: 3d61ed65
encoder.layer.5.attention.self.key.bias_output: 3913434a
ONNXTRT_Broadcast_408_output: 3913434a
/encoder/layer.5/attention/self/key/Add_output_0: 3d59bcbc
/encoder/layer.8/attention/output/LayerNorm/LayerNormalization_output_0: 3e3330ca
ONNXTRT_Broadcast_620_output: 3b05facc
onnx::MatMul_1599_output: 3b31f8cb
/encoder/layer.9/intermediate/intermediate_act_fn/Add_output_0: 3c810a14
/encoder/layer.9/intermediate/intermediate_act_fn/Constant_2_output_0_output: 3b810a14
/encoder/layer.6/attention/self/Transpose_3_output_0: 3c8ed533
encoder.layer.10.attention.self.value.bias_output: 39ffb731
/encoder/layer.6/attention/self/Softmax_output: 3b8061eb
ONNXTRT_Broadcast_618_output: 3b034cb5
encoder.layer.8.intermediate.dense.bias_output: 3b05facc
onnx::MatMul_1622_output: 3b56e2c7
/encoder/layer.5/attention/self/Reshape_output_0: 3d59bcbc
onnx::MatMul_1563_output: 3ad980f6
ONNXTRT_Broadcast_413_output: 3ad980f6
/encoder/layer.5/attention/self/value/MatMul_output_0: 3d0f3c27
encoder.layer.5.attention.self.value.bias_output: 3a251fc3
ONNXTRT_Broadcast_415_output: 3a251fc3
/encoder/layer.5/attention/self/value/Add_output_0: 3d0b4636
/encoder/layer.7/attention/self/query/Add_output_0: 3d8d9a5d
/encoder/layer.10/intermediate/intermediate_act_fn/Erf_output_0: 3c010a14
/encoder/layer.8/attention/self/key/Add_output_0: 3d57949f
/encoder/layer.8/intermediate/intermediate_act_fn/Erf_output_0: 3c010a14
ONNXTRT_Broadcast_472_output: 3aaf223d
onnx::MatMul_1582_output: 3ac66601
/encoder/layer.6/attention/self/Div_output_0: 3e073ee4
/encoder/layer.8/attention/self/query/Add_output_0: 3d844aba
/encoder/layer.10/attention/self/key/Add_output_0: 3d6ca8d0
/encoder/layer.5/attention/self/Reshape_1_output_0: 3d0b4636
/encoder/layer.5/attention/self/Transpose_output_0: 3d0b4636
encoder.layer.9.attention.output.dense.bias_output: 3aa7ae6d
/encoder/layer.10/intermediate/intermediate_act_fn/Constant_2_output_0_output: 3b810a14
ONNXTRT_Broadcast_760_output: 3b1ecd83
ONNXTRT_Broadcast_624_output: 3c010a14
/encoder/layer.10/attention/self/Div_output_0: 3df78cc4
/encoder/layer.8/attention/self/query/MatMul_output_0: 3d78dbc9
/encoder/layer.8/attention/output/dense/Add_output_0: 3c901f5f
/encoder/layer.10/attention/self/Constant_12_output_0_output: 3d810a14
ONNXTRT_Broadcast_474_output: 3a9b3bfb
/encoder/layer.6/attention/self/Softmax_output_0: 3b8061eb
/encoder/layer.11/intermediate/dense/Add_output_0: 3dbbe9fb
/encoder/layer.9/intermediate/dense/MatMul_output_0: 3e380067
ONNXTRT_Broadcast_482_output: 3d810a14
/encoder/layer.5/attention/self/Reshape_2_output_0: 3d705fcb
/encoder/layer.5/attention/self/Transpose_1_output_0: 3d705fcb
/encoder/layer.5/attention/self/Transpose_2_output_0: 3d59bcbc
/encoder/layer.5/attention/self/MatMul_output_0: 3f802b42
/encoder/layer.5/attention/self/Constant_12_output_0_output: 3d810a14
ONNXTRT_Broadcast_423_output: 3d810a14
/encoder/layer.5/attention/self/Div_output_0: 3e002b42
/encoder/layer.5/attention/self/Add_output_0: 7f800000
/encoder/layer.5/attention/self/Softmax_output: 3b808abc
/encoder/layer.5/attention/self/Softmax_output_0: 3b808abc
/encoder/layer.6/attention/self/Constant_12_output_0_output: 3d810a14
ONNXTRT_Broadcast_622_output: 3c367d3d
/encoder/layer.5/attention/self/MatMul_1_output_0: 3c8cf1d8
/encoder/layer.5/attention/self/Transpose_3_output_0: 3c8cf1d8
encoder.layer.6.attention.self.value.bias_output: 3a9b3bfb
/encoder/layer.6/attention/self/MatMul_output_0: 3f873ee4
/encoder/layer.6/intermediate/dense/MatMul_output_0: 3da19c98
ONNXTRT_Broadcast_683_output: 3c010a14
/encoder/layer.8/attention/self/Reshape_3_output_0: 3c982062
/encoder/layer.6/attention/self/Transpose_2_output_0: 3d652b93
onnx::MatMul_1641_output: 3ad578fc
ONNXTRT_Broadcast_701_output: 3b080ea6
/encoder/layer.9/attention/self/Reshape_3_output_0: 3c93e230
onnx::MatMul_1624_output: 3b322f4c
/encoder/layer.5/attention/self/Reshape_3_output_0: 3c8cf1d8
onnx::MatMul_1569_output: 3ac9d526
ONNXTRT_Broadcast_431_output: 3ac9d526
/encoder/layer.5/attention/output/dense/MatMul_output_0: 3c90eaff
encoder.layer.5.attention.output.dense.bias_output: 3a5b8424
ONNXTRT_Broadcast_433_output: 3a5b8424
/encoder/layer.5/attention/output/dense/Add_output_0: 3c7780d3
/encoder/layer.5/attention/output/Add_output_0: 3df2fbf5
onnx::MatMul_1649_output: 3aeeb99c
/encoder/layer.11/intermediate/intermediate_act_fn/Mul_1_output_0: 3cb60c57
/encoder/layer.5/attention/output/LayerNorm/LayerNormalization_output_0: 3e5e3b01
onnx::MatMul_1570_output: 3b0295e0
ONNXTRT_Broadcast_441_output: 3b0295e0
/encoder/layer.5/intermediate/dense/MatMul_output_0: 3dc0c4fc
encoder.layer.5.intermediate.dense.bias_output: 3b8d1325
ONNXTRT_Broadcast_443_output: 3b8d1325
/encoder/layer.5/intermediate/dense/Add_output_0: 3dc0725c
/encoder/layer.5/intermediate/intermediate_act_fn/Constant_output_0_output: 3c367d3d
ONNXTRT_Broadcast_445_output: 3c367d3d
/encoder/layer.5/intermediate/intermediate_act_fn/Div_output_0: 3d881494
/encoder/layer.5/intermediate/intermediate_act_fn/Erf_output_0: 3c010a14
/encoder/layer.5/intermediate/intermediate_act_fn/Constant_1_output_0_output: 3c010a14
ONNXTRT_Broadcast_447_output: 3c010a14
/encoder/layer.5/intermediate/intermediate_act_fn/Add_output_0: 3c810a14
/encoder/layer.5/intermediate/intermediate_act_fn/Mul_output_0: 3d10b685
/encoder/layer.5/intermediate/intermediate_act_fn/Constant_2_output_0_output: 3b810a14
ONNXTRT_Broadcast_449_output: 3b810a14
/encoder/layer.5/intermediate/intermediate_act_fn/Mul_1_output_0: 3c90b685
onnx::MatMul_1571_output: 3b448b7c
ONNXTRT_Broadcast_451_output: 3b448b7c
/encoder/layer.5/output/dense/MatMul_output_0: 3ed89e92
encoder.layer.5.output.dense.bias_output: 3a9dbed3
ONNXTRT_Broadcast_453_output: 3a9dbed3
/encoder/layer.5/output/dense/Add_output_0: 3ed9a739
/encoder/layer.5/output/Add_output_0: 3e517513
ONNXTRT_Broadcast_803_output: 3b810a14
/encoder/layer.11/intermediate/intermediate_act_fn/Constant_2_output_0_output: 3b810a14
/encoder/layer.5/output/LayerNorm/LayerNormalization_output_0: 3df6d6b9
onnx::MatMul_1572_output: 3b110e8b
ONNXTRT_Broadcast_461_output: 3b110e8b
/encoder/layer.6/attention/self/query/MatMul_output_0: 3d758521
encoder.layer.6.attention.self.query.bias_output: 3b9b1e2b
ONNXTRT_Broadcast_463_output: 3b9b1e2b
/encoder/layer.6/attention/self/query/Add_output_0: 3d777fe4
onnx::MatMul_1573_output: 3b12be88
ONNXTRT_Broadcast_465_output: 3b12be88
/encoder/layer.6/attention/self/key/MatMul_output_0: 3d6564bb
encoder.layer.6.attention.self.key.bias_output: 393ef003
ONNXTRT_Broadcast_467_output: 393ef003
/encoder/layer.6/attention/self/key/Add_output_0: 3d652b93
/encoder/layer.9/intermediate/intermediate_act_fn/Constant_1_output_0_output: 3c010a14
/encoder/layer.6/attention/self/Transpose_1_output_0: 3d777fe4
ONNXTRT_Broadcast_756_output: 3b6e4463
ONNXTRT_Broadcast_726_output: 3abc8ea7
/encoder/layer.11/attention/self/Transpose_2_output_0: 3d6b71f4
/encoder/layer.6/attention/self/Transpose_output_0: 3d07db7b
encoder.layer.8.attention.self.value.bias_output: 3a7dbd7a
/encoder/layer.11/attention/self/Add_output_0: 7f800000
/encoder/layer.8/intermediate/intermediate_act_fn/Add_output_0: 3c810a14
ONNXTRT_Broadcast_777_output: 3d810a14
ONNXTRT_Broadcast_590_output: 3ab79a87
